#include "sine_model_data.h"

ai_handle ai_sine_model_data_weights_get(void)
{

  AI_ALIGNED(4)
  static const ai_u8 s_sine_model_weights[ 1284 ] = {
    0xe2, 0xe8, 0x59, 0x3e, 0x84, 0x4d, 0x5f, 0x3e, 0x88, 0x00,
    0xb5, 0xbd, 0x99, 0x77, 0x74, 0x3e, 0xab, 0x1a, 0xbb, 0xbe,
    0x44, 0xa9, 0x87, 0xbe, 0x7e, 0xdb, 0x62, 0x3e, 0x8c, 0xa4,
    0xec, 0xbd, 0x15, 0xcd, 0x60, 0x3e, 0x00, 0xd8, 0x40, 0xbd,
    0x40, 0x38, 0x0c, 0xbf, 0xa3, 0x06, 0x11, 0x3e, 0x03, 0x85,
    0xf4, 0x3d, 0x22, 0x8e, 0x2a, 0x3a, 0x65, 0xb7, 0xa6, 0xbe,
    0x26, 0x04, 0x63, 0x3e, 0xf2, 0xe4, 0xaf, 0x3d, 0x6f, 0xa0,
    0x03, 0xbb, 0x00, 0x00, 0x00, 0x00, 0xe0, 0x52, 0x27, 0x3e,
    0x00, 0x00, 0x00, 0x00, 0x00, 0x00, 0x00, 0x00, 0xcd, 0x9a,
    0xf5, 0xbe, 0x00, 0x00, 0x00, 0x00, 0xb7, 0xc2, 0xba, 0xbe,
    0x00, 0x00, 0x00, 0x00, 0x00, 0x00, 0x00, 0x00, 0xb8, 0x4c,
    0xc4, 0xbe, 0x56, 0x75, 0x38, 0xbe, 0xb5, 0x7b, 0x94, 0xbb,
    0x00, 0x00, 0x00, 0x00, 0x6a, 0xb1, 0x34, 0xbf, 0xb4, 0x2a,
    0xb2, 0x3e, 0xb8, 0x59, 0x2d, 0xbe, 0x71, 0x57, 0xcd, 0x3e,
    0x29, 0x60, 0x6b, 0x3e, 0xeb, 0x50, 0xbd, 0xbe, 0x42, 0xdf,
    0x0b, 0x3e, 0xfc, 0xd0, 0x07, 0xbf, 0xc8, 0xe8, 0x59, 0xbe,
    0x25, 0x56, 0xd7, 0xbe, 0x57, 0x23, 0x8b, 0x3e, 0xc2, 0x71,
    0xad, 0xbe, 0xd5, 0xcd, 0x8d, 0xbe, 0xbe, 0x02, 0x0d, 0xbe,
    0xbd, 0xbd, 0x01, 0x3e, 0x44, 0xb0, 0xaf, 0x3d, 0x9c, 0x4e,
    0x6c, 0xbf, 0xdf, 0x39, 0xd6, 0xbe, 0x00, 0xf3, 0xd6, 0x3a,
    0xaf, 0x59, 0x78, 0xbe, 0x40, 0x14, 0x26, 0x3c, 0x6c, 0x51,
    0x99, 0xbe, 0x9b, 0x19, 0xda, 0xbe, 0xc0, 0x35, 0xa6, 0xbe,
    0x10, 0x00, 0x9f, 0xbd, 0xe1, 0x71, 0xa8, 0x3e, 0xf6, 0x6e,
    0x33, 0x3e, 0x26, 0x59, 0x75, 0x3e, 0xc0, 0x10, 0xd7, 0xbd,
    0x04, 0x8d, 0x31, 0xbe, 0x7e, 0x9e, 0x66, 0xbe, 0xba, 0xf8,
    0x04, 0xbe, 0xf6, 0xff, 0xc9, 0xbe, 0xc7, 0x69, 0x75, 0xbd,
    0xcf, 0x12, 0x93, 0x3e, 0xe0, 0x85, 0x06, 0x3c, 0x49, 0x30,
    0x23, 0x3e, 0xfa, 0xe4, 0x4e, 0xbe, 0xf3, 0x5f, 0x86, 0x3e,
    0x12, 0xcf, 0xd2, 0x3c, 0xb0, 0xc1, 0x8d, 0x3c, 0x41, 0x56,
    0x37, 0xbf, 0xdb, 0x09, 0xbc, 0x3e, 0x5c, 0xc5, 0x07, 0xbe,
    0x6d, 0xf9, 0xe8, 0xbe, 0xb6, 0x47, 0xdc, 0xbd, 0xb4, 0x8b,
    0x48, 0x3e, 0x80, 0xae, 0x21, 0x3d, 0x47, 0xd1, 0x3f, 0xbf,
    0x03, 0x8b, 0x26, 0xbe, 0x8d, 0x42, 0xd5, 0x3c, 0xb7, 0x44,
    0x91, 0x3e, 0x60, 0x85, 0x95, 0xbe, 0x2e, 0xb9, 0x42, 0xbe,
    0x7a, 0x85, 0x02, 0xbe, 0xcc, 0x09, 0xe8, 0xbc, 0x80, 0x88,
    0x3b, 0xbc, 0xf7, 0x3e, 0xae, 0x3e, 0x6a, 0x9c, 0x11, 0xbe,
    0x51, 0x1a, 0xa8, 0x3e, 0x9f, 0x6a, 0x1f, 0x3e, 0x7f, 0xc6,
    0x89, 0xbd, 0x32, 0xa1, 0x13, 0x3d, 0x84, 0x15, 0xa1, 0x3d,
    0x27, 0x89, 0x0e, 0xbe, 0x6e, 0xd0, 0x91, 0xbe, 0x53, 0x86,
    0xe7, 0x3e, 0x54, 0x98, 0xd9, 0x3d, 0x1e, 0x5f, 0xad, 0x3e,
    0x96, 0x9c, 0x20, 0x3e, 0x8d, 0xdf, 0xb5, 0x3e, 0x91, 0x3b,
    0x63, 0x3e, 0x37, 0x6f, 0x9b, 0x3e, 0x30, 0xe7, 0xef, 0xbc,
    0x0d, 0xde, 0x95, 0x3e, 0x76, 0x33, 0x32, 0x3e, 0x72, 0x78,
    0x80, 0x3d, 0x55, 0x8f, 0x55, 0x3e, 0x0e, 0xc3, 0xed, 0x3d,
    0xb6, 0x08, 0x83, 0xbe, 0xe0, 0x49, 0x0b, 0xbf, 0x28, 0x5d,
    0x21, 0x3a, 0x3a, 0x66, 0xc6, 0xbc, 0x3c, 0xdd, 0xfa, 0x3d,
    0x8f, 0xb0, 0x7d, 0x3e, 0x42, 0x7d, 0x0b, 0x3e, 0x10, 0x65,
    0xb3, 0xbd, 0x44, 0x7d, 0xb5, 0x3b, 0x28, 0xf9, 0x0e, 0x3d,
    0xc5, 0x49, 0xba, 0xbe, 0x0e, 0xd2, 0x14, 0x3e, 0x16, 0x01,
    0x5a, 0xbe, 0x65, 0x17, 0xb3, 0x3e, 0xc0, 0x06, 0x81, 0xbe,
    0xfb, 0xd5, 0x86, 0xbe, 0x81, 0x00, 0x8c, 0x3e, 0x34, 0x8a,
    0xc8, 0x3d, 0x74, 0x61, 0x19, 0xbf, 0x78, 0x70, 0xbf, 0xbf,
    0x06, 0x09, 0x2b, 0x3e, 0x75, 0xa0, 0x32, 0xbe, 0x37, 0xb2,
    0x97, 0xbe, 0x6f, 0x6d, 0xb4, 0x3e, 0x1f, 0x5c, 0x05, 0xbf,
    0x20, 0xcd, 0x9a, 0xbc, 0xab, 0x92, 0xd6, 0xbe, 0x42, 0x98,
    0x23, 0x3e, 0xa4, 0x04, 0x9b, 0xbd, 0x4b, 0xa5, 0x8f, 0x3e,
    0x1a, 0xe4, 0x02, 0x3e, 0x4c, 0xec, 0xd5, 0xbe, 0x55, 0xa9,
    0x86, 0x3e, 0xbb, 0x13, 0xbe, 0x3e, 0x0d, 0x10, 0x0d, 0x3e,
    0x50, 0xf0, 0xd1, 0x3d, 0xf6, 0xfb, 0xae, 0xbe, 0x79, 0xc9,
    0xb5, 0x3e, 0x40, 0x44, 0x13, 0xbe, 0xa8, 0x80, 0xaa, 0xbd,
    0x78, 0xa0, 0x64, 0x3e, 0x23, 0x11, 0xcd, 0x3e, 0xde, 0x6d,
    0xf9, 0xbe, 0xff, 0x93, 0xad, 0x3e, 0xb9, 0x09, 0x60, 0xbe,
    0xe6, 0xfd, 0x34, 0xbf, 0x7c, 0x33, 0x35, 0x3e, 0xbe, 0x73,
    0x13, 0xbe, 0x1d, 0x20, 0x8f, 0xbe, 0x7e, 0x96, 0xec, 0xbe,
    0x5b, 0xb0, 0x0e, 0x3e, 0xe3, 0xf5, 0xe4, 0x3e, 0x18, 0x1b,
    0x51, 0x3d, 0x05, 0xc3, 0x4b, 0x3e, 0x82, 0x5c, 0x6d, 0x3e,
    0x2b, 0x4a, 0x8c, 0x3e, 0xb6, 0x78, 0x00, 0xbf, 0x35, 0x41,
    0x73, 0xbe, 0x2b, 0xc4, 0x09, 0xbf, 0x0e, 0x22, 0x63, 0x3e,
    0xdb, 0xf9, 0x86, 0x3e, 0xac, 0x12, 0x03, 0xbf, 0x90, 0xb3,
    0xc0, 0xbe, 0xdc, 0xdb, 0x5e, 0xbe, 0xe5, 0x4d, 0xc9, 0xbe,
    0x10, 0xd1, 0x21, 0xbf, 0xc1, 0x98, 0x6e, 0xbd, 0x35, 0x17,
    0xa3, 0x3e, 0x74, 0x53, 0xc4, 0x3d, 0x92, 0x65, 0xb3, 0xbe,
    0x91, 0x1d, 0x8c, 0x3e, 0x55, 0xf6, 0xcd, 0xbe, 0xaf, 0x1e,
    0x0b, 0x3f, 0x39, 0x73, 0x99, 0xbe, 0x73, 0x2f, 0xbf, 0xbb,
    0x1e, 0x22, 0xcb, 0xbe, 0x79, 0x44, 0xac, 0x3e, 0xbe, 0x51,
    0x31, 0x3e, 0x0f, 0xba, 0xaf, 0x3e, 0xd5, 0x8c, 0x3c, 0x3d,
    0xe7, 0x75, 0xbd, 0x3e, 0x49, 0x09, 0x65, 0x3f, 0xa6, 0x15,
    0xe0, 0x3e, 0x93, 0x88, 0xa1, 0x3e, 0x06, 0x48, 0x8d, 0xbe,
    0x98, 0x27, 0x88, 0xbe, 0x06, 0x88, 0xd5, 0xbe, 0x80, 0x2f,
    0x04, 0xbc, 0x4a, 0x65, 0xb0, 0xbe, 0x3d, 0x17, 0xa2, 0x3e,
    0xb1, 0x81, 0x83, 0x3d, 0x1a, 0xce, 0x7a, 0x3e, 0x21, 0xea,
    0xb6, 0x3e, 0x2a, 0x5a, 0x76, 0xbe, 0x1f, 0x85, 0x99, 0x3d,
    0xdf, 0xe0, 0x20, 0x3d, 0x1d, 0x07, 0xdc, 0x3e, 0xc0, 0x85,
    0xee, 0xbe, 0x46, 0xc1, 0xa6, 0x3e, 0xed, 0xd8, 0xe5, 0xbe,
    0xda, 0x05, 0xbe, 0xbe, 0x20, 0x8b, 0x9b, 0x3e, 0x94, 0x96,
    0x3a, 0xbe, 0x2b, 0x1c, 0x9d, 0x3e, 0x1f, 0x2a, 0xdb, 0x3d,
    0x76, 0xb8, 0x51, 0x3e, 0x30, 0x17, 0x9a, 0xbe, 0x6c, 0x45,
    0x26, 0xbe, 0x50, 0xe0, 0xba, 0xbc, 0xec, 0x2f, 0x3d, 0xbe,
    0xf7, 0x9a, 0x6e, 0xbe, 0x21, 0xf5, 0x2f, 0xbb, 0xcc, 0x09,
    0xe4, 0xbd, 0x4d, 0xdc, 0x2f, 0x3f, 0xa5, 0x85, 0x6d, 0x3e,
    0xc3, 0xb6, 0x5d, 0xbe, 0x18, 0xdf, 0x91, 0xbe, 0x91, 0x60,
    0x46, 0x3e, 0x00, 0x46, 0xf1, 0x3c, 0x3b, 0xb6, 0x42, 0xbe,
    0xd7, 0x5b, 0x77, 0xbf, 0x08, 0xb8, 0x67, 0xbd, 0x89, 0x75,
    0x0d, 0xbf, 0x8c, 0xcf, 0xd7, 0xbe, 0x00, 0x90, 0xd7, 0xbc,
    0x8d, 0x9a, 0x38, 0xbf, 0xf7, 0xc0, 0x9e, 0xbe, 0xbd, 0x29,
    0x05, 0x3e, 0xed, 0xa7, 0xd4, 0xbe, 0x3e, 0x90, 0x24, 0xc0,
    0x60, 0xd6, 0x8e, 0x3e, 0x70, 0xe2, 0xbb, 0xbe, 0x93, 0xd4,
    0x88, 0x3e, 0xe2, 0xf0, 0xda, 0x3d, 0xa0, 0x4c, 0xe6, 0xbc,
    0xa4, 0xaa, 0xf1, 0xbd, 0x40, 0x6d, 0xce, 0x3e, 0x4c, 0x95,
    0x8b, 0xbd, 0x3b, 0x72, 0xbd, 0x3e, 0x88, 0x0d, 0x28, 0xbd,
    0x00, 0x40, 0xef, 0x3b, 0x47, 0x33, 0xb4, 0x3e, 0xe0, 0x55,
    0xd8, 0x3d, 0xb8, 0x90, 0xa5, 0xbc, 0xcc, 0x30, 0x5a, 0xbe,
    0xbe, 0xc4, 0x08, 0x3f, 0xc0, 0x1b, 0xc8, 0x3e, 0xfc, 0x75,
    0xce, 0x3c, 0x39, 0x27, 0x90, 0x3e, 0xec, 0x55, 0x00, 0x3e,
    0x70, 0x60, 0x7d, 0x3d, 0xac, 0x7d, 0xa6, 0xbe, 0x70, 0xf1,
    0xc1, 0x3d, 0xe9, 0x83, 0xa4, 0xbe, 0x90, 0xd6, 0x2f, 0xbe,
    0xd3, 0x00, 0x98, 0x3e, 0x41, 0x6a, 0x94, 0x3e, 0xe9, 0xd8,
    0xa4, 0xbe, 0xa1, 0x67, 0xc3, 0x3d, 0xd0, 0x83, 0x97, 0x3c,
    0x7a, 0x93, 0x3f, 0x3e, 0x53, 0x65, 0x60, 0xbf, 0xc5, 0x1c,
    0xc7, 0xbe, 0x42, 0x7d, 0xc3, 0xbc, 0xa8, 0xd7, 0x1c, 0x3d,
    0x24, 0x74, 0xbe, 0x3e, 0x14, 0x96, 0xda, 0x3d, 0x2d, 0x6c,
    0xab, 0x3e, 0x11, 0x5e, 0xbf, 0xbe, 0x50, 0xb4, 0x8f, 0x3c,
    0x04, 0x5f, 0x02, 0xbe, 0x14, 0x5d, 0x12, 0xbe, 0x38, 0x57,
    0x80, 0xbd, 0xac, 0x67, 0xbc, 0xbe, 0x2b, 0x9e, 0x92, 0x3d,
    0x91, 0x8b, 0xed, 0xbd, 0x0c, 0x60, 0x71, 0xbe, 0xf6, 0x08,
    0x8b, 0xbe, 0x4a, 0xda, 0x8a, 0x3e, 0x00, 0x00, 0x00, 0x00,
    0x16, 0xf1, 0xc2, 0x3e, 0xb0, 0xa3, 0x0b, 0x3a, 0xcb, 0x69,
    0x2c, 0x3e, 0x1c, 0xe4, 0x12, 0xbe, 0x5e, 0x43, 0x0d, 0x3f,
    0xb5, 0x80, 0x23, 0x3e, 0x70, 0x01, 0x88, 0x3e, 0x2e, 0xd3,
    0x4b, 0xbf, 0x02, 0xee, 0x51, 0x3e, 0x56, 0xca, 0xfd, 0xbd,
    0x9c, 0x6d, 0xa8, 0x3e, 0xe6, 0x8d, 0xeb, 0xbe, 0x5d, 0x57,
    0x52, 0x3e, 0xca, 0x1f, 0x17, 0xbd, 0x85, 0xc5, 0x80, 0x3f,
    0x9a, 0xc2, 0x6d, 0xbe, 0xcd, 0xbb, 0x54, 0x3f, 0x3a, 0xec,
    0xdd, 0x3d, 0xdb, 0x1d, 0xae, 0xbe, 0x07, 0x74, 0x06,
    0xbb, 0x0e, 0xd9, 0xa3, 0xbf, 0x71, 0x0c, 0x3f, 0xbe,
    0x62, 0xc2, 0x9c, 0x3f, 0x68, 0x1f, 0xea, 0x3f, 0xb7,
    0x0e, 0xbd, 0xbe, 0x52, 0x5e, 0xf7, 0x3d, 0x2a, 0xc9,
    0x5e, 0x3f, 0xfd, 0x7b, 0x8a, 0x3e, 0x73, 0x9f, 0x11,
    0xbf, 0xac, 0x72, 0x91, 0x3e, 0xdc, 0xb9, 0xe3, 0xbe
  };

  return AI_HANDLE_PTR(s_sine_model_weights);

}

